cfe1
d881
e0a1
eed7
f61b
d953
dce0
eecc
ee61
df0c
e565
e7b9
cd08
c9e1
da60
e931
e72b
eada
e3cd
ff07
dfcf
e623
f6d4
d8ee
de32
ce0f
ea94
dfea
de69
cfbe
e776
f8e3
dba2
d733
f92a
efce
f2be
de62
fb7a
d64e
d891
dc3a
e636
d4cb
e02b
dd4d
e21d
f708
f05c
eeb4
d7cd
f6ad
e0dd
c477
cb3c
0630
ea9a
dba1
e82f
dec8
f375
ed3d
ec3b
dfd4
e0aa
cabd
ecf2
f6af
cf6d
f82d
cfe1
d089
e956
df83
e098
e874
c9f0
dda3
d90d
e2a3
f4ca
dcf3
eca5
e476
