9c09
9a11
9843
9659
9498
92c5
911d
8f63
8da0
8c07
8a5b
88da
8746
85b5
8444
82bf
8165
7ff8
7e8e
7d4e
7bfc
7ac9
7984
7869
773c
7611
7506
73e8
72f4
71ee
70ea
7011
6f25
6e59
6d79
6cc5
6bfe
6b3a
6a95
69de
6950
68b1
6813
67a0
671b
66b5
663c
65ee
658e
6530
64fc
64ab
6484
644a
643c
641b
63f1
63f2
63e0
63f8
63fe
6407
643a
644e
648e
64bb
6513
6559
659f
6607
665b
66da
6746
67b5
6843
68bf
6965
69f8
6ab7
6b63
6c06
6cd3
6d8e
6e73
